3DCC4980
3D413CBD
BD4EB0C3
3E3EBF67
BE96FBF8
BEA6307A
3EC2ECE7
BD62A0AD
3CA61264
3D4E55E2
BE57D882
BE36123A
BE7F8527
BEC21590
BE4940A3
BE30DCA7
3E9D03E2
BC87D97D
3EFF09ED
BE01BF6B
3DEDC310
BDB89C16
BDC3099B
BB2ED7C3
3E7CEF77
BEB88B05
3DEBC573
3EE04E21
BEA76731
3E5BFB13
BE99A668
3E00BD1C
3E34BD1D
3D13260E
3BFCF83A
3DDB69DD
BE85341D
3EB1EBEA
BE9B0645
BD08A257
3D6D8FAA
3A5F3A64
BE752963
BE77F600
BE8F9800
3DEA1A28
3DF56DE3
3E7266AC
3DF3A54B
3DC3228E

