3C246247
BE0EA354
BDFA46FA
3CFDE3D6
BDEDFB55
3D45588F
3F03E3B1
3EDB5C2F
3DB891DE
3F025D24
BF26AA7D
BCF03190
BF0363D8
3F6921B0
3D420E1D
3EFBFF1D
3E9FC85B
3DAF9EC3
3EF44EDA
3DD89007
BDBD311A
3D8413A3
3F077C34
BF625DA4
BED6A0D8
3EDD6EE4
3F0A8E6B
3F14EA0C
BD3FBFDB
BE32C3CA
BEB14808
3E78D380
BEC95730
BED98F1D
BE45F8AA
3E5F7DE0
BEC504DB
BE407658
BE2E5186
BE814D30
3E8FF16F
BE2C92EF
3E802BBA
BE3BB281
3DF71DF8
BE59FDBF
BE41BF8E
BEED25F4
BF727D4D
3ED0A8E7

