3DDA47CE
BB7C2741
3E00ACB5
3D996568
3E162551
BC381671
3DBE9470
B978C2CE
BDC4ADD5
BE1EBC3F
3E255085
BDD928D5
BE3BE1B5
3E54069A
3E840A09
3D9C299C
3DD6F4C6
BD035FA3
3DED8E8F
BD89EDDE
3D8FF3C7
3E96AB14
BD34E53A
BDA13B0F
BDAA470D
BDC139E2
3E3E1C68
3E220168
3E233DC3
BB584579
3DFD536B
3E0ED798
3E006D80
3DF7C4FA
BDC0C5B5
3E04490C
3D77B726
3DEC24D5
3E15DB47
3E2311D3
3DC174A4
3E1F3105
BD3DDDBC
3D7509BF
3C81889B
3E49DB7B
BE047FD8
3E40E4F3
3E915BE7
3E1CCF25
3E0AE61C
3D3FE06A
BDFE7F7C
3D3C192E
3E895061
BD1B5D2A
3D18E928
3E05EC7D
3DD06C99
BDDA48A3
3DBD1FA1
3DCD44B8
3E6FB7C1
3C3CC40D
3C18F52C
3E2C38AE
BD935D10
BCE49875
3D813EF8
3D948D0F
BCFD9F74
3E3CC109
3CC36691
3CBCC8F3
BDA7C479
BD0207BC
BBCBB6FA
3E459551
BCA4A4B1
BD0539F2
BDAB8A5A
3CB3F980
3D25EF1D
BD569858
3E8B54D1
BDA113DE
BD306C38
3D06807E
3D6548C0
3A080FBA
3DAE79D6
3E6C00A2
BCE1DAED
BE329B93
3DE98978
BE1E0E0A
3E7487AA
3D646747
BE3EC284
3D0FE6AE
BE5C5A61
3C9FD5E5
BCE29101
BC951618
BD50CEE4
3D4E4721
3D2B95F3
BD478A06
3E68BD94
3C34672E
BD7D9BC6
BD7F8FA3
3E5B2991
3E0A9120
3E30C476
3DAC9871
BDA2A224
3DA1F626
3E7BA772
3C436095
BDB97CB4
3DC5BBE4
3DA42B58
3E0672CB
3E25E9F2
3E5B406B
BDA34B2F
3DAAD131
BE280044
BD856B14
BD2A5D21
BC070E0F
3E0D4D2F
3DEDF19C
3E006BE6
3E68C950
3DEE27A3
3E175B0D
3E265FC1
3E14D6BA
3DB1A80E
3DC39F0D
3DC0D752
BD22FC9C
3D4238B0
3DBC2F1F
3E821133
3DED55D2
3D9E0D76
3E6E2144
BD46BE02
BD829D27
3DE9D582
BE07A9F1
BDF1D319
3E12E268
3E554D05
3E4851D2
3E12771E
3E4B72E5
BCBC8BF8
3DA86731
BE3423B6
3E2759F0
BD255499
BC41E965
3D2EB1A0
BDF20F6D
3E7AA6A4
3E8A1638
BCF77ECC
3DF558F5

